fd
0e
ce
1a
cb
00
bc
98
fc
19
0f
0e
fc
00
f5
dc
f1
f6
da
9d
1c
12
d3
14
f1
f2
3c
f4
12
e4
e3
11
01
e5
0c
ea
e3
ee
e5
12
eb
f8
19
11
00
f2
12
05
fd
ef
16
03
f2
fb
d2
19
2d
03
d1
a5
f9
03
07
0c
1e
ee
00
db
f2
f0
0f
2c
f4
e5
11
b9
d3
df
ea
15
03
03
fe
18
e8
e6
d6
fb
0f
ff
81
b8
f4
f3
0f
e8
16
0d
f5
e7
15
06
e1
d3
e1
18
dd
f2
fc
0a
f1
0d
e0
e9
ee
b5
f9
14
23
ea
a7
fe
dd
2e
e9
fa
00
02
06
09
f1
e5
fb
07
20
cc
08
e9
e0
e9
0c
12
0a
09
05
14
f0
df
05
03
fa
f3
f2
02
d9
d0
10
08
0e
ea
04
bb
04
18
d8
06
11
04
06
bb
07
f4
10
e1
ed
db
fb
f3
e9
18
18
f4
11
de
c0
e1
23
05
07
0c
f3
de
bf
06
05
07
05
d6
d3
28
ff
14
b6
e3
d8
0b
d2
f7
d2
10
d2
f7
d1
c9
ec
e2
ed
fc
21
e4
df
dd
db
1b
ef
fd
14
16
13
f9
f3
ff
19
04
e9
df
e4
01
04
e4
eb
1c
ec
f0
fa
f6
fb
ba
cd
0c
c4
d4
f1
c0
f0
12
da
cf
f2
14
f8
d8
f9
ee
a0
d3
07
e9
1d
ec
df
f1
d0
cf
e4
14
11
dc
20
d7
d0
e1
d9
f6
c9
03
f7
e4
