16
dd
0c
c2
df
1d
0c
f6
09
b2
0c
04
f3
df
10
bc
f1
81
e6
dc
07
09
17
d7
0c
02
0d
ec
ee
00
29
d9
e3
e3
f8
91
09
e9
10
e8
01
ce
05
ee
0c
01
fc
0b
39
f1
0b
df
b6
0f
09
18
f1
0b
f3
be
e6
11
10
0e
c4
ed
e4
c1
04
c9
c3
fe
d5
fe
1b
eb
fd
05
d0
27
1f
19
f2
03
99
0c
bf
0b
1d
fe
f7
db
d1
02
23
0a
27
17
19
1d
e4
f9
e4
d6
e4
f8
f4
f5
dc
e1
14
c8
ac
d2
01
fc
17
0d
ae
14
0c
ec
1b
df
f8
00
03
04
e9
f5
ee
f0
ee
07
f3
28
16
ea
15
21
fa
0e
0a
d6
c0
eb
0b
1a
cb
01
d0
05
0a
f6
05
1a
05
e5
cb
0f
9b
fc
0e
1e
15
f6
07
fd
12
fd
18
10
d0
f3
ec
1d
d4
0c
f3
0c
e8
0a
f1
ec
e5
f4
06
fd
06
e4
1a
eb
05
e6
e1
ef
c6
23
10
bd
b0
2e
e7
db
cc
02
ff
12
0d
1a
c4
f6
ef
ae
e4
00
f5
db
f6
c9
05
15
e2
e2
e0
0d
dd
fd
10
16
06
e9
e3
26
a1
bb
cd
1b
10
e8
db
05
e9
01
d7
e5
ba
fb
0c
0f
f5
fb
18
00
00
ec
c8
e5
1b
0c
00
d3
10
e4
f4
e0
da
fb
d2
d7
ef
20
c5
f7
e7
20
bc
bd
10
fe
be
b9
1d
c0
01
d5
11
f4
