39
b9
2a
d5
24
1a
f5
e8
2f
ec
2b
b1
13
1f
09
e1
3c
a2
21
c7
21
1c
08
db
35
08
2c
02
d3
ff
de
e1
2a
15
11
0f
a9
b3
d5
d4
32
07
2c
09
b6
e3
d5
d5
c5
11
f1
3a
38
19
20
13
e2
08
ef
34
5b
31
3c
07
d4
07
f2
28
67
24
3a
fb
0d
07
bb
36
d1
d7
00
14
15
bd
cc
23
ac
db
2d
33
03
c8
c0
23
d4
d0
05
12
1a
b9
33
2e
d2
d2
f1
f0
2f
df
38
16
d1
d2
12
f1
1a
bd
2a
fd
d2
cb
ec
ec
fb
ec
28
de
e2
f6
19
ef
32
11
07
ed
af
02
3d
fa
fe
06
25
cc
8a
f7
24
ea
bc
a6
0f
c9
07
e3
17
07
9c
cf
3a
cc
03
28
37
17
b1
cd
09
cb
ef
ee
2e
08
9e
98
aa
11
0e
06
fa
e8
9c
85
a9
1a
12
0a
f9
e4
9f
81
b4
12
0b
f7
fa
ee
f5
d8
f0
18
fa
da
5b
02
e4
f1
14
13
d6
29
57
ff
df
fa
ee
1b
e6
e9
70
fa
2f
03
02
f0
d3
bc
b6
dc
23
f9
0c
04
d5
a1
b6
e5
2e
06
02
1a
d8
ad
cf
cc
13
04
d5
a2
2a
19
dd
0a
06
15
cc
9c
18
2b
de
1a
14
13
ca
bc
1d
28
f1
0c
11
50
ee
d5
f8
f5
9f
de
0e
58
ef
cb
2a
f5
b0
ec
1a
4d
e8
e6
0f
fc
cc
e4
e6
40
0f
c9
fd
f9
10
26
d2
62
fc
ce
ff
09
11
34
ef
53
ff
ca
f8
00
10
10
fb
15
22
19
eb
fc
01
cd
01
40
11
05
c5
dd
07
c9
00
4b
2a
08
c2
f0
e4
e4
e5
47
13
0c
1f
2b
38
f4
c7
34
1f
01
10
20
3f
ef
cc
42
1b
09
21
22
45
01
f0
d1
1e
d7
25
24
cf
c7
13
e9
36
e0
3d
13
c5
bf
e6
d3
31
eb
0b
2d
cc
f1
c2
fb
05
d2
13
25
3b
e7
8f
ff
08
db
19
29
44
f8
9e
ff
0f
e5
2d
2c
21
e9
d2
e5
1f
2e
f0
21
3b
ea
a9
f1
e5
25
c0
d5
45
eb
d3
ee
1e
3c
de
15
37
eb
d5
37
da
dd
44
22
e0
e9
e4
19
e7
c2
3a
2d
e0
d3
d7
1b
d8
eb
50
2b
de
f0
97
c5
bb
fe
0e
0c
1f
2a
a4
a9
a1
e8
26
2a
19
3f
99
a9
b6
e5
25
1a
14
24
1f
34
f3
d3
ce
e8
26
21
f6
18
ee
e1
a6
00
13
33
1a
20
ed
d7
b2
e3
32
0f
3b
40
20
ea
f7
02
ff
e4
41
29
2b
e6
ef
17
fe
eb
2a
53
1a
db
df
02
f9
e9
14
ad
35
ef
c3
b5
1b
3b
2b
94
2e
03
c7
d3
1a
41
1b
a8
3b
0a
bd
c7
30
28
21
30
d8
e0
29
1d
b4
d8
09
16
df
dd
1f
ed
ab
b8
16
21
dc
dd
01
14
b0
db
ee
15
ac
bf
24
30
bf
c1
cc
e8
ad
9b
0a
0d
c0
ab
ea
11
ad
e3
24
27
be
c7
e9
00
08
35
27
2a
24
ca
e4
2d
26
0d
1c
f0
22
c5
eb
1d
22
22
f8
fa
10
de
03
f9
91
bb
b8
b7
b9
ca
14
e2
87
bb
b0
bb
b9
d1
10
e3
9f
bc
b7
b7
bb
cb
26
d6
ed
dc
b5
97
cd
da
22
d3
f7
d3
c0
8f
c9
ed
26
cb
e6
d7
b5
af
ca
ed
04
23
f4
c1
eb
00
4f
f3
e9
2c
d1
af
c9
e5
4b
e5
f3
1e
1c
ce
da
21
46
e5
e2
0c
1c
91
0c
05
21
09
f9
28
0d
84
0b
0a
31
08
eb
0a
1d
be
17
06
0f
f7
f4
09
32
cc
36
38
0d
e0
f2
e1
2f
f3
2a
16
ee
db
f5
0f
2a
e4
1c
28
fd
f4
0b
44
ec
3a
09
e0
c4
dc
1c
2b
02
31
07
ad
f6
d9
18
1c
f8
4f
f8
c1
fa
cb
