37
0b
14
fb
cf
c6
b7
d8
1b
00
fb
ff
c5
9a
b7
da
28
08
0c
f8
d4
c0
b7
cb
13
d7
2b
04
ee
da
26
14
1e
ee
2c
fa
fe
ee
44
eb
22
d9
29
f9
f8
e1
1a
fe
1d
32
07
da
0c
f6
eb
30
28
2e
1f
e5
04
0b
f2
30
2b
20
11
ce
03
0a
fc
15
16
bb
16
da
bb
bb
11
18
16
bb
16
ea
b6
c5
0b
25
0c
bb
16
f2
b3
bb
16
16
df
1d
f3
ff
3f
1d
31
1b
e6
ff
fa
fb
37
29
49
22
e6
f8
f8
f9
34
3a
4d
0e
19
32
dd
06
d0
d0
ff
f5
00
24
00
21
cf
eb
13
dd
16
0f
ed
2a
ae
c9
21
ee
f2
5a
ed
0c
fb
fa
22
25
f7
4b
f4
05
fa
01
08
23
f6
4c
e6
03
fa
f9
13
16
ba
dc
13
df
fa
06
22
fb
a0
e9
32
e5
ed
25
28
0a
a9
06
0d
e4
e2
f7
2c
fa
f4
2f
fa
c8
ea
07
11
ff
f1
3b
de
c0
ea
d8
26
ff
f0
32
fc
cd
e3
0f
15
04
c3
af
e6
33
e2
c5
0c
f4
e1
bd
fe
29
f8
bd
21
f7
d8
bb
f5
33
d4
b9
11
fa
00
ee
fe
8b
f2
05
46
00
fc
fc
fb
94
00
f3
41
fe
fc
f2
fe
be
fc
fd
19
fe
ec
06
f6
ab
e9
ec
20
0c
e2
10
09
a9
d3
12
30
09
f4
01
00
ce
d2
f1
0e
ff
fb
20
f5
c8
23
33
dc
c4
da
28
ea
cf
38
1d
cc
ce
ef
11
f0
db
2c
22
cb
d3
da
fc
03
23
25
22
39
fa
d8
02
02
16
14
13
3e
05
cf
fe
03
27
27
27
36
fa
17
46
25
1b
d8
f7
15
f6
1c
50
17
08
f7
f7
26
fc
13
4e
1a
0b
d8
fc
23
f7
be
ca
c4
f5
15
1e
07
2c
bd
b0
a5
e7
03
1b
00
27
c3
c9
cd
f6
11
f3
00
17
e9
fc
b0
d6
1b
29
e5
d0
e0
e3
81
d8
1b
2e
d3
d3
e6
eb
ae
f2
06
20
da
d2
a3
be
da
1b
08
0b
12
18
a3
bf
e6
1d
2a
12
1b
14
9b
bf
cd
0b
1e
19
0c
12
ea
2a
29
d3
2e
12
12
e8
ea
30
24
dc
1e
23
12
f6
f1
0c
19
d2
2b
08
fa
e9
f9
da
22
ee
06
ff
01
18
f1
c1
20
00
08
0c
02
32
fa
e3
25
f9
fd
19
18
1e
16
ed
db
da
c8
c3
b7
c0
1b
db
e9
d5
c3
bf
a7
c7
24
e1
d8
db
c9
c5
b0
c3
30
0f
06
d8
1e
22
07
f6
38
09
29
df
10
34
f6
d4
34
19
1b
d2
0b
29
20
f1
0a
2f
b8
c4
f4
ee
a9
f0
05
1a
b9
bf
01
ee
87
00
08
37
bf
e9
0a
f5
be
f4
f3
06
3f
0f
49
0a
f9
f7
00
25
35
03
3f
07
0d
f6
f9
10
29
0b
3d
20
f3
02
27
dd
24
13
de
ff
1d
bf
2c
f8
16
f8
f8
fc
2a
cd
27
f5
24
02
d7
f5
17
db
16
1e
f1
03
0f
0f
29
e8
18
21
f4
00
12
23
57
f4
0b
1f
fe
02
2e
17
56
e8
12
00
29
f2
e6
ff
f5
24
1f
0d
25
ec
cb
f0
fc
30
28
0c
1c
e7
d2
03
f8
21
0e
fe
2c
04
fd
1b
41
15
09
16
25
fb
bd
13
3e
fb
10
03
29
03
e1
14
26
02
13
e8
08
1c
e2
d6
1f
13
12
fc
12
1b
ce
fc
23
16
0a
ed
08
07
cd
de
2b
0e
e7
15
f1
2b
21
ed
df
cc
18
17
fb
1f
25
e3
ef
cc
15
11
00
2d
2e
e9
f1
d4
26
ef
f4
ec
0e
db
0e
01
09
b3
c7
ea
eb
0f
05
12
27
ca
92
d9
0d
29
0f
17
fb
01
30
f3
25
18
fc
eb
f7
0d
2e
f2
2e
27
0a
f5
f8
18
2f
ef
31
24
ec
f8
